3D0
086
3F0
112
132
317
051
04C
391
34F
092
03B
344
2AA
28B
3FB
0E3
317
105
0BE
3ED
005
074
3FA
3D7
3B5
3FF
3AA
120
0BB
0D7
3F6
0A9
3BC
10F
02D
11D
34D
3DA
027
071
0B4
390
0F1
339
381
03C
0A1
38C
023
114
307
11B
020
3F5
03B
179
341
05F
2FD
3CC
347
112
370
352
0B8
04A
103
092
321
0EA
06B
359
270
0DF
382
094
0EA
0CF
33C
3A9
00E
30F
3DB
079
380
062
3FB
37A
014
31A
3C9
10E
042
00F
129
104
356
357
374
3FF
0B2
3F6
352
161
0A2
306
066

