FC7
FB1
F8C
FC6
087
F8C
F9F
058
025
F26
F80
FCC
FA1
FB1
FC7
E8A
078
029
015
FA6
FAA
04A
02F
02D
FC8
06C
F20
F1F
0AD
FDE
F53
003
060
F4D
029
F65
042
073
FF8
EC9
F60
FC0
079
F01
15B
017
F80
F81
15A
03B
FB9
F8C
030
0C4
F86
E9D
0C8
03B
FAC
FAD
04E
09A
FC7
EBA
057
082
0AD
FA1
0F2
FF5
F54
FD4
F23
F47
F76
025
098
FAC
FBE
ECE
FEB
F41
F06
04E
196
072
0C9
F8C
FD9
E70
E70
067
1A5
07B
06F
E95
006
00F
070
0BF
F1F
FAF
07C
ECB
05E
079
0A2
060
FD2
0AC
08F
F16
02B
FE2
092
FDF
FCC
02F
060
EC4
FAB
FFE
04B
083
F1B
FE9
F07
FD5
034
F5A
0CF
016
F68
FE7
071
F9B
FCD
F92
FD6
039
F8D
F73
FE3
050
01C
012
0F7
FB1
F02
07A
0D9
F2F
040
FCE
02D
061
FBA
043
05A
019
F9C
FA2
115
0D7
FBA
06D
0AB
FF0
01C
017
095
F99
FB5
0AF
FD5
F8D
047
053
03C
F7F
FA4
FD3
F72
FF9
081
F93
0D9
052
F21
0C4
032
F85
E47
FF8
FC5
003
EFD
01F
FB2
FAB
FA4
FBE
003
00A
F67
09C
FB6
FFA
F6C
F69
08D
03B
F2C
F85
F8F
F52
0D3
FD1
FDA
034
0D0
F70
F8D
FAA
F68
F15
F83
00D
028
F6D
FF5
F2D
051
FDC
F3F
013
089
F81
FA2
F8B
059
013
F5A
072
02B
F64
051
F64
E79
057
FBF
FD3
05C
EFA
067
EE1
F49
FF0
F6B
033
FD5
EC5
01E
F56
149
0A9
040
013
F9C
025
160
F89
EE7
07A
FCF
081
03B
F5C
FEF
03B
F7D
03B
005
FF6
054
EF2
0E7
F7A
021
02F
003
06D
F55
045
025
FA0
03B
F91
02E
026
F97
05C
FC9
F14
059
FC1
F65
F61
0AA
05C
F77
FC0
F88
FD2
FB1
0BA
F29
000
FE9
F79
FB0
028
034
084
07E
025
FAD
FBB
02B
06D
FF1
F35
00D
F82
037
EFC
F5C
019
FBA
FC1
EC0
04F
E8F
10A
F83
075
F31
F36
082
06C
EF0
FEB
08B
0AB
FDF
EFD
076
0CC
F8D
0AE
FFE
F78
03F
009
064
F59
03E
FC9
00F
F34
FB3
F80
057
FE1
06F
EB5
F70
FC9
04B
06E
08D
06B
04C
F96
0BB
004
F47
063
045
FAB
01B
008
06F
F7D
FE2
064
FD0
030
002
F1B
06C
061
0CA
FE7
047
F5B
01D
0D3
101
F0C
020
F29
026
F85
F7C
F44
03F
FBD
F9A
F21
0A8
FC3
012
DE1
006
061
046
FEC
054
FBE
082
10F
FC9
00F
05C
14B
F2D
0B1
0A1
F00
07D
FB2
083
06D
FF0
FEE
013
FF3
076
02F
FE6
11A
E6D
0D0
050
F6D
F75
F6F
F84
F59
F7C
0AD
F96
F9C
050
048
00E
024
039
003
F77
014
075
F62
FEE
004
F76
06C
FCC
FF8
E2E
FC2
053
05B
EF0
009
F2C
FF3
FF0
FC3
0A6
10D
F57
071
F8F
FB8
F6E
039
048
046
EF7
048
F5F
050
FCB
0A3
F74
083
16E
FE0
F87
FE7
F91
056
041
035
02C
047
06C
09E
F71
0C2
F6D
068
0D4
FDF
FD6
0D4
F61
019
049
0E8
06B
030
FDD
035
003
01C
008
FF4
130
069
04B
089
05F
098
F8D
020
023
061
FD4
FF5
09A
FB9
F65
0A8
052
00A
04B
FE9
086
0B8
FAD
085
031
FA3
FCB
060
045
018
062
017
092
F6C
096
FD3
F9B
F95
ED7
087
133
01E
01B
033
FAA
F50
ED5
F25
01D
F98
05C
FB1
024
FB6
F53
0B5
0EA
F94
F3B
F25
0ED
01E
021
019
F58
0DB
05A
065
008
FD7
FAB
F5C
FF2
133
0D8
095
00A
008
FB9
06A
F32
062
076
09A
08C
F6B
0CB
0BB
EBE
FAC
F8C
FD3
FF5
FC6
F8B
08A
ECA
FA6
FF2
F5F
08A
F98
FC3
0DB
ED5
018
044
F3D
EDF
FB7
F1B
EF9
ECA
03C
021
EBB
F15
07C
F65
FFF
FE5
045
08D
FAD
FD8
F97
F47
05E
EFD
003
044
F50
0D7
077
F10
F54
047
06E
093
FFE
019
05F
050
092
059
05A
EAB
006
FAD
015
FE2
03E
F55
FCD
D9E
035
F7F
046
F13
FCD
129
F97
035
0FB
FA2
FAF
FAB
F65
09B
073
F6C
082
FA9
05E
FD3
073
04C
F64
E1E
0FC
079
039
F4E
EF7
1C2
FEC
F59
F4C
013
F59
EB6
F9E
1D8
FEC
F69
EFF
01C
F8A
E4D
F5C
153
0F2
F1D
F68
FFF
F97
F1D
07E
101
FB6
008
F1E
FF2
061
ECC
FC0
04F
062
F9A
F23
FC3
059
E6A
FDF
07D
09C
02C
EEF
26F
06F
EFA
FCD
0AB
105
FAF
EE7
FF5
FFA
FBD
F76
F72
089
F98
F38
08F
03D
FB7
00B
FED
10F
FB9
F58
F79
010
F66
E73
13E
086
F35
F71
008
01C
F65
EDC
106
0A4
F54
F72
009
FA0
EC0
E69
F4F
0DF
FE8
F27
F19
04B
F52
EE0
F76
054
099
F79
017
FED
060
056
08D
FB2
01D
FA7
FDA
017
F08
FFF
0CE
014
00B
F5A
ED1
FAB
F6D
03E
F96
FBD
046
020
FDF
FA2
FCC
0C5
FA9
056
F96
01B
01E
06A
FAE
01A
FDF
FF9
FE3
05F
F88
FEC
F58
011
203
087
FD8
030
E5D
F2A
0CC
FBD
134
028
03F
FC5
FDE
F96
011
FE6
0FA
FEE
04B
043
04D
FF2
F95
F5C
14E
05A
F2C
EB5
F47
032
0CD
FAF
0DB
020
F87
E7A
FA6
FD7
0C4
FA1
0C7
019
FFA
033
1E1
00F
09F
FFE
00E
0F9
026
F75
FE8
011
148
FC5
098
FCD
F96
E78
0BD
038
1B7
FEA
06C
FE7
F41
F8B
FD1
F71
03C
EAD
001
03B
018
046
FEB
F83
F95
E53
008
000
045
FD5
00B
F0F
068
EFC
FFF
00B
06D
FEA
FB0
00C
F7E
F03
1AF
033
FAC
F8F
F81
F8B
071
EF8
112
043
FAD
011
FBC
F5E
F8F
E72
12B
F86
040
FF6
09F
FFC
0A9
F10
113
069
07E
0AB
FA8
078
057
FFC
0AC
073
FFB
FE7
094
F9F
02B
F33
0B6
018
FD6
033
F0F
09C
F42
02D
490
0A0
FFB
08D
F64
038
F9D
118
29B
0B3
F64
046
FF1
090
EF6
07D
1A3
08D
F68
0D2
F1E
00A
FEA
FAE
165
FB7
04A
05D
082
016
058
032
FF6
F94
F61
FA1
FFB
F83
03E
FCE
08B
047
F89
FF8
FAB
FF0
020
055
12A
05D
028
0BC
009
0A2
005
FED
043
FFE
F61
04E
055
051
068
FB3
14B
FFF
008
07B
F9C
05B
00C
F40
E6D
F77
E0D
F7F
035
01F
083
013
09B
F82
F7E
FAC
F95
FD2
02F
F86
F28
FBD
F6A
F2C
0AC
033
FC2
037
081
016
F75
F7A
FED
F77
03D
FBB
0FE
027
031
FBE
03F
08C
F6C
01D
0A8
FCC
043
FAE
FBD
FC3
0AC
0C8
055
FC4
EF2
F4D
071
F97
028
05B
15C
019
F8B
FE1
FD3
FFE
018
064
04C
041
075
FC5

