03D
7BB
065
07A
7C8
094
0D8
71D
7F1
75F
002
72F
129
119
04C
045
0E4
033
079
7DD
006
1C6
6A8
711
017
066
6EC
021
0B8
00E
762
69E
0D1
7F8
660
75A
059
0FF
675
7E5
033
78A
742
059
042
7FC
6F6
051
035
01D
7D5
749
23D
091
007
769
03F
037
016
6F0
074
07F
05B
6B0
7EB
7C6
720
0D3
141
014
022
7ED

