FCB
F72
087
028
EF6
08A
F40
EC3
01E
022
F61
F1C
FDF
0BF
FC4
F74
055
FE9
FFF
0F3
F51
FBD
00C
EB5
02E
03C
F72
FFF
F6C
004
FB1
0E9
05D
00C
FE8
0D8
038
FF1
FEC
FDD
095
FF2
FE8
055
FFC
FA5
F09
043
0CC
F70
F7F
F8C
FAD
0EC
06C
F28
F76
FFC
00E
F95
F7E
F86
F21
065
09D
00C
076
F5F
031
0D9
FF2
00C
FC1
F7D
F2A
029
FFC
058
ED2
0B6
FD0
F24
FA3
F83
FD3
0CA
FE0
F10
00B
F82
FF8
021
083
01A
F37
0C8
129
F52
0AD
09D
FA2
0C8
F1E
00C
EB5
F62
FD7
FD8
FD5
0CB
F5C
F85
0B0
F5E
07F
047
045
05E
F22
FF4
F19
F3E
FFF
F0F
FA3
0E7
E80
002
0A2
00E
FF6
079
0A7
0FF
F07
F81
E6D
F07
02E
FC2
EEB
FF7
F10
0BA
035
FF4
09C
080
F40
02F
F5A
FE0
053
FA7
FD6
098
021
0DC
F91
F9D
086
0B8
FDB
F55
FF8
FC7
FEE
FC6
FBF
F56
023
FC6
F90
070
F99
F66
F96
019
06C
FBC
FDD
02A
FCB
F21
FAC
ED7
017
051
067
07D
EF7
063
021
F6D
013
025
FE8
05F
F6F
063
007
F9E
FF8
070
021
074
067
F89
0DE
F9C
064
0D2
F74
03C
FC2
F63
020
F55
F7F
FAE
F91
039
02C
F6D
068
F3F
05D
09B
00B
049
F51
06A
FC3
FD2
050
025
FED
0A8
F8D
F99
143
F44
F95
15F
F57
0A0
FB1
007
E91
FE1
098
FC1
070
003
0C6
FF5
091
FBA
03A
097
FCC
16A
099
07F
FAD
005
00D
F59
002
FE7
0AE
FBC
0BC
FF8
F5F
0D2
098
0B8
FDA
01C
FD6
F38
0D0
FD7
021
FF1
086
FB4
053
0A7
FBB
FD9
03B
003
022
F90
FCB
0F5
067
043
0E4
FAF
022
FEE
02C
160
F8C
FEF
0E3
FD1
08F
F6D
042
0FD
FDF
0AF
F87
F64
F7F
0B2
01B
13B
039
E6D
037
042
060
F5E
FA7
01D
FE3
FDF
012
EC3
FF6
011
FF6
0D1
082
F3D
0F8
00A
FC3
062
FD2
0E3
0B2
064
0B7
001
01B
02B
0F1
0B6
FE6
FC9
FAD
009
056
FD3
FBE
FF0
065
063
054
FCF
005
09F
FF0
09D
05E
FB0
029
FF7
FA8
026
F89
0C0
016
FCE
F96
030
FE7
093
F30
124
034
EC9
014
006
FB8
F8F
0ED
0A9
F33
FD7
03A
F25
033
FC3
F44
FE0
096
EB0
0D0
F77
FF6
F64
01D
045
F6B
FFB
048
FB2
06B
FCC
F38
088
080
EFB
FC9
FBE
FCF
F89
FDB
057
FE8
04D
06D
F5A
02F
FE1
237
CEB
FB6
444
D83
0C1
EC9
09E
F52
E1E
1C4
23F
07F
1F8
042
018
06F
FA0
FE3
2AC
03E
080
F9A
01E
FCE
F7A
0CD
0C7
FB5
0EB
0D5
F5E
080
13A
F93
113
0D3
0CC
075
F6C
000
020
F3A
079
090
F48
F85
FB4
166
ED1
004
154
E78
146
016
FF5
F87
025
109
FA1
FB8
0AB
08E
001
079
FA9
FF0
FE3
06E
094
FDE
F60
F61
0BB
045
045
FF7
F56
016
FF4
0BB
058
06E
E0A
FE2
F0D
FD6
F63
04C
0E3
F24
02C
0B3
E81
032
0B7
0D9
064
FC6
065
FDE
0FA
FD2
0AF
E64
FFB
0B4
08C
078
1CA
01C
FED
FF5
11E
03F
E9E
08D
004
097
FC9
FE8
02D
02A
0BB
F91
FC2
055
FD3
EB7
238
0AD
D5D
0F8
EED
07C
F79
1E2
1BD
CBB
094
0A5
DFB
FBF
FB0
02A
EF5
F17
07B
01E
F94
FCB
052
F84
ED4
07B
0E3
FC5
040
0CD
07F
0AF
FB4
F6A
18F
FF1
037
F91
039
FC5
F4E
0ED
100
FE8
0E2
FF5
02B
040
E0A
F34
293
097
00D
FA6
0B8
ED2
E01
1DD
114
042
095
007
041
F96
FF1
F66
FC2
F1F
FE5
FD5
007
F94
F64
068
037
06F
056
FDC
F61
FEE
FDB
03F
008
07C
068
FEC
FF1
014
015
053
011
FB7
066
014
FDC
0A5
FB1
F8D
125
F6D
100
F8C
02D
F0B
E9B
02D
028
027
05D
08C
012
F97
FD1
F15
13B
FAB
001
F73
009
FC2
F71
00E
F6F
028
FCB
089
04A
043
066
042
120
FBD
116
008
07C
EE4
FE5
02F
039
0B3
085
FA9
055
030
F6E
F4F
0F7
049
07D
F74
F96
E77
FF5
090
F1F
11C
041
FDC
079
F22
1A1
032
F63
0CF
015
088
FEC
FB6
0AC
F84
027
06F
FC6
FFB
FEA
051
060
044
F47
077
11C
022
FB0
021
104
09E
06F
111
FA3
F93
0D7
F9A
2B1
0FC
F18
096
0AC
0E2
F0F
FAF
203
FE2
FC4
04F
F84
FC0
035
F18
FE0
F8E
FEE
009
02F
034
026
F5E
013
FC8
078
F5B
FCD
038
087
FF5
FFC
F6C
FA8
104
FE8
F85
02C
015
0DA
FDC
0AD
FF0
047
F98
099
EDF
FE8
062
FFF
0A4
FFF
FC5
FF4
FC8
0C0
FFE
0C3
FAF
F76
F86
0F3
060
FB7
F4C
F20
FF6
035
FDF
002
F55
FCA
F07
073
F83
0D3
FE6
F73
07D
FF6
05D
F8C
FF4
FF2
F2D
FE3
023
061
EC2
0B8
F39
077
01E
FA1
FFB
0EC
023
FF9
087
03C
02C
FE0
03D
0C6
E9A
FDC
F17
03C
FDB
F4D
F8F
F86
F5C
15E
EBD
FE9
FF1
F8B
051
EB5
F8B
FF1
F1E
EFE
FDF
F2B
0C6
FF6
006
238
F14
0D8
F54
FAC
055
044
043
082
F2D
03A
F26
09F
FE1
FB9
FF7
1C0
E09
EAA
F85
F9C
094
F86
F4F
11E
EF8
FB9
FE1
FA7
03C
045
F83
FA3
FFD
060
073
FC4
FD3
F71
FE3
F9D
FA0
F53
FEC
E9C
16A
05E
032
0FB
0E1
160
046
FE0
FB9
093
0A2
15B
EF3
107
F77
09F
058
0A7
01C
FD8
F49
F6E
065
09D
05F
FBE
07A
096
F4E
045
F94
FF9
F67
E23
F96
1DE
FB4
FD7
EC5
FCD
F2D
DF0
F1B
F61
FE8
FBB
F9B
E9B
11C
F27
F96
279
084
110
FC4
FC2
FF8
0A7
081
06E
F0F
126
036
045
105
009
F67
0D0
041
FC0
F23
F70
EFA
F2B
F80
05D
F9C
038
F72
F1B
0F0
E45
F63
161
F84
FF7
FB4
F9A
F24
FEA
FDC
0A3
089
F9B
08D
007
FE3
EB9
F8F
0DA
063
036
F66
F52
F95
FF1
109
0D2
099
0A8
085
09A
09D
DCD
F0D
0F9
FF7
FD4
056
003
F4D
F85
0D3
048
FFB
FA4
0C2
F5A
0A6
F02
F5B
045
FF1
03E
FF0
FC7
F41
F7D
0CF
098
0CC
061
01B
073
04D
F51
F37
0E1
044
0C8
05D
020
00A
FA8
04E
FF2
039
002
FB1
F66
F72
EDD
F30
FF5
0BD
0AF
FE6
FBF
F9D
FB3
020
051
05D
08E
F8B
FB4
0B8
EF2
01E
060
FC2
0F6
FBD
F97
F97
FC6
12C
FE6
0BC
07F
FB8
00E
FC9
F0C
F52
0C6
0B5
0E9
FE1
00C
FD2
FD2
016
F52
0B1
F83
FDF
0A2
033
DBF
04A
0D7
00E
00A
031
FA7
F65
F61
0A8
007
00D
FA1
013
0A2

