7A0
793
763
7C5
706
008
75A
747
700
77D
6EC
080
7B6
0C3
064
7B2
6E0
013
7AD
127
6DE
7A9
7B3
090
7EA
146
0EE
0FB
787
787
72D
7E0
721
78C
7A7
7DE
061
78D
009
06A
174
798
7D7
0B7
135
01C
7C6
110
7CC
7CE
079
7F7
080
72C
0AF
0A8
03B
04C
0EA
7A2
062
790
03A
133
783
024
0DE
125
710
007
011
0E6
100
7D3
798
057
11F
7B4
72B
781
75B
069
7D5
04D
0F8
022
775
7E8
7BB
7EE
7EE
089
05F
103
0D6
7E9
7DB
024
019
799
71E
7BA
05D
007
070
005
7FE
7BD
7B7
017
089
019
107
7B8
0FF
79D
7A4
7C0
16B
13A
185
7A9
083
10F
141
07F
0BA
735
0EC
75B
7F3
056
0C2
767
71B
731
0AA
713
7E0
73C
0AA
742
061
0BE
73E
0B6
79A
7C1
710
043
0CC
6AC
07F
7D6
785
74C
734
01C
7A1
0AC
01C
7FF
05D
791
74B
7FF
002
05F
5D8
030
6E6
07B
5CB
6F5
7BB
000
708
7DF
6EE
1A9
74B
0AB
06E
039
761
77D
78E
74E
753
7AF
00A
7F3
004
0B0
7B3
0A9
758
71B
7F6
02B
00A
0E0
07C
04B
715
08D
70C
081
740
726
701
03A
78A
0D6
7FB
0ED
6A6
0B3
158
774
695
7F7
199
038
009
7D9
0ED
7C1
706
7B6
794
013
6B8
013
090
7CF
7B1
04A
081
0A9
757
07C
0A0
088
775
728
046
7CF
034
029
064
046
736
005
0B9
01E
7C0
715
797
790
73C
7D4
037
7E0
7CC
6A6
04F
7C5
100
00C
79F
73B
14B
740
022
044
0EF
052
064
024
050
115
11A
0A5
736
7E1
14D
009

