08B
799
7BB
085
7F5
036
092
7F4
08E
7F7
091
04D
75D
70C
09E
680
0EF
017
04B
0CC
150
032
7F0
06F
08D
057
00B
06B
736
74F
05A
783
085
710
7CB
03A
1CD
795
084
07D
0D0
084
088
7F8
066
70A
132
7BE
0F4
7B7
7D7
093
733
7A4
7CC
059
0CC
7EF
089
7F6
039
7FE
07E
737
11C
7FD
0BF
0A4
5E6
79D
09E
012
0F8
01B
0D4
778
000
7F7
0D4
7CA
065
7ED
049
797
7EA
092
7C8
05F
0B0
0F9
05F
7EE
7BB
754
03F
09E
633
0A1
7F9
7D4
73C
7D3
7A8
727
599
707
18D
7E4
781
004
7DB
712
7E6
01D
034
7E0
034
011
01B
028
684
71E
0B0
0AA
6BB
064
7FB
72C
786
05B
77A
7FF
708
7DF
03D
6FB
789
6F3
7FB
0C4
6FD
74D
7C3
710
7C5
07B
782
02C
6D1
7AE
7E8
7CE
7AC
030
118
75F
7A8
12E
05D
683
7F1
076
75F
75D
0D0
773
7AF
040
745
798
02F
034
6B1
0F5
062
6DD
796
790
00C
7A8
704
024
787
7A3
748
770
103
79D
6FF
10C
08D
770
7CC
7E0
797
024
09A
09F
020
00F
7B6
7A9
0D0
7C3
7F3
085
7EE
006
044
0A8
799
05D
08D
00E
7F3
03D
760
7D3
7CA
058
066
7C6
7A7
753
004
7D2
035
7E2
090
770
770
04E
01F
758
00A
02A
07E
0D0
0D1
701
6E4
02D
737
77A
08C
029
788
7F7
7A4
7A5
01B
00A
7C1
093
06D
026
00B
06F
045
02C
017
76E
773
05B
71D
721
0A3
068
7DA
027
081
017
6C3
008
7BC
766
015
076
00B
01E
690
6FB
05B
0D7
7E6
022
075
7ED
7E6
0B2
754
075
15B
023
7BB
7BD
72D
07A
036
059
7F8
07C
7D9
098
072
7E6
760
039
0B0
03F
79E
7BA
0A3
7A9
70F
081
0D4
75E
09E
08C
7F5
7ED
7E3
075
0EB
033
7D3
7BD
0A9
00E
74B
74B
123
7CE
0A4
0E6
7B2
7BB
7D4
7DB
7B2
7FF
048
02D
066
79E
7A9
7FB
7A3
09D
043
070
0C1
034
041
0BC
18E
78F
010
033
0EF
00D
7DE
78E
0AA
05E
125
058
007
7C2
7E9
0C1
03A
7D4
7C3
7F3
1F9
0E3
709
018
115
051
13C
089
02C
020
795
039
79A
023
02F
7E4
046
7D0
003
77D
799
037
000
767
7EF
03D
0AE
7D2
024
030
017
04A
12A
7EF
727
041
7BB
7D4
139
083
0D4
0C7
035
036
041
7C2
078
7FD
181
0DC
75B
71A
126
015
063
0BA
062
76D
6F8
0CF
170
7E3
79E
7FA
018
0B8
7DE
132
7DE
7D8
06D
7C3
074
727
7DC
07F
7F5
7C2
7D2
03B
7E9
020
7CF
12B
089
054
129
7DE
797
75B
05C
02E
792
790
7EF
788
71E
012
7C5
75F
01B
043
046
030
0AE
032
73B
0C0
044
081
7E1
01B
171
0A3
7F7
106
069
006
025
0A8
134
7EB
77D
0D6
128
7EF
7C7
100
079
06E
7A6
001
7FE
07E
7FA
07B
01D
072
7A0
78C
010
01E
08B
752
763
76E
018
7FB
74D
766
044
723
106
09F
01A
05D
06C
7A9
7E2
01C
19A
0AE
7DA
07E
78D
00D
11C
063
05C
7B5
07D
01A
051
7C8
05B
0A6
0CA
096
026
7D3
794
0B8
09E
047
07A
7D7
095
064
7A5
09B
7C3
06C
03F
04E
722
757
061
788
08D
05C

